static const unsigned int g_nanoem_model_vertex_weight_fs_wgsl_size = 448;
static const unsigned char g_nanoem_model_vertex_weight_fs_wgsl_data[] =
{
    0x76, 0x61, 0x72, 0x3c, 0x70, 0x72, 0x69, 0x76, 0x61, 0x74, 
    0x65, 0x3e, 0x20, 0x69, 0x6e, 0x76, 0x61, 0x72, 0x43, 0x4f, 
    0x4c, 0x4f, 0x52, 0x30, 0x5f, 0x31, 0x3a, 0x20, 0x76, 0x65, 
    0x63, 0x34, 0x3c, 0x66, 0x33, 0x32, 0x3e, 0x3b, 0x0a, 0x76, 
    0x61, 0x72, 0x3c, 0x70, 0x72, 0x69, 0x76, 0x61, 0x74, 0x65, 
    0x3e, 0x20, 0x6f, 0x75, 0x74, 0x76, 0x61, 0x72, 0x53, 0x56, 
    0x5f, 0x54, 0x41, 0x52, 0x47, 0x45, 0x54, 0x30, 0x5f, 0x3a, 
    0x20, 0x76, 0x65, 0x63, 0x34, 0x3c, 0x66, 0x33, 0x32, 0x3e, 
    0x3b, 0x0a, 0x0a, 0x66, 0x6e, 0x20, 0x6e, 0x61, 0x6e, 0x6f, 
    0x65, 0x6d, 0x50, 0x53, 0x4d, 0x61, 0x69, 0x6e, 0x5f, 0x31, 
    0x28, 0x29, 0x20, 0x7b, 0x0a, 0x20, 0x20, 0x20, 0x20, 0x6c, 
    0x65, 0x74, 0x20, 0x5f, 0x65, 0x36, 0x20, 0x3d, 0x20, 0x69, 
    0x6e, 0x76, 0x61, 0x72, 0x43, 0x4f, 0x4c, 0x4f, 0x52, 0x30, 
    0x5f, 0x31, 0x3b, 0x0a, 0x20, 0x20, 0x20, 0x20, 0x6f, 0x75, 
    0x74, 0x76, 0x61, 0x72, 0x53, 0x56, 0x5f, 0x54, 0x41, 0x52, 
    0x47, 0x45, 0x54, 0x30, 0x5f, 0x20, 0x3d, 0x20, 0x63, 0x6c, 
    0x61, 0x6d, 0x70, 0x28, 0x5f, 0x65, 0x36, 0x2c, 0x20, 0x76, 
    0x65, 0x63, 0x34, 0x3c, 0x66, 0x33, 0x32, 0x3e, 0x28, 0x30, 
    0x2e, 0x30, 0x2c, 0x20, 0x30, 0x2e, 0x30, 0x2c, 0x20, 0x30, 
    0x2e, 0x30, 0x2c, 0x20, 0x30, 0x2e, 0x30, 0x29, 0x2c, 0x20, 
    0x76, 0x65, 0x63, 0x34, 0x3c, 0x66, 0x33, 0x32, 0x3e, 0x28, 
    0x31, 0x2e, 0x30, 0x2c, 0x20, 0x31, 0x2e, 0x30, 0x2c, 0x20, 
    0x31, 0x2e, 0x30, 0x2c, 0x20, 0x31, 0x2e, 0x30, 0x29, 0x29, 
    0x3b, 0x0a, 0x20, 0x20, 0x20, 0x20, 0x72, 0x65, 0x74, 0x75, 
    0x72, 0x6e, 0x3b, 0x0a, 0x7d, 0x0a, 0x0a, 0x40, 0x66, 0x72, 
    0x61, 0x67, 0x6d, 0x65, 0x6e, 0x74, 0x20, 0x0a, 0x66, 0x6e, 
    0x20, 0x6e, 0x61, 0x6e, 0x6f, 0x65, 0x6d, 0x50, 0x53, 0x4d, 
    0x61, 0x69, 0x6e, 0x28, 0x40, 0x6c, 0x6f, 0x63, 0x61, 0x74, 
    0x69, 0x6f, 0x6e, 0x28, 0x30, 0x29, 0x20, 0x69, 0x6e, 0x76, 
    0x61, 0x72, 0x43, 0x4f, 0x4c, 0x4f, 0x52, 0x30, 0x5f, 0x3a, 
    0x20, 0x76, 0x65, 0x63, 0x34, 0x3c, 0x66, 0x33, 0x32, 0x3e, 
    0x29, 0x20, 0x2d, 0x3e, 0x20, 0x40, 0x6c, 0x6f, 0x63, 0x61, 
    0x74, 0x69, 0x6f, 0x6e, 0x28, 0x30, 0x29, 0x20, 0x76, 0x65, 
    0x63, 0x34, 0x3c, 0x66, 0x33, 0x32, 0x3e, 0x20, 0x7b, 0x0a, 
    0x20, 0x20, 0x20, 0x20, 0x69, 0x6e, 0x76, 0x61, 0x72, 0x43, 
    0x4f, 0x4c, 0x4f, 0x52, 0x30, 0x5f, 0x31, 0x20, 0x3d, 0x20, 
    0x69, 0x6e, 0x76, 0x61, 0x72, 0x43, 0x4f, 0x4c, 0x4f, 0x52, 
    0x30, 0x5f, 0x3b, 0x0a, 0x20, 0x20, 0x20, 0x20, 0x6e, 0x61, 
    0x6e, 0x6f, 0x65, 0x6d, 0x50, 0x53, 0x4d, 0x61, 0x69, 0x6e, 
    0x5f, 0x31, 0x28, 0x29, 0x3b, 0x0a, 0x20, 0x20, 0x20, 0x20, 
    0x6c, 0x65, 0x74, 0x20, 0x5f, 0x65, 0x33, 0x20, 0x3d, 0x20, 
    0x6f, 0x75, 0x74, 0x76, 0x61, 0x72, 0x53, 0x56, 0x5f, 0x54, 
    0x41, 0x52, 0x47, 0x45, 0x54, 0x30, 0x5f, 0x3b, 0x0a, 0x20, 
    0x20, 0x20, 0x20, 0x72, 0x65, 0x74, 0x75, 0x72, 0x6e, 0x20, 
    0x5f, 0x65, 0x33, 0x3b, 0x0a, 0x7d, 0x0a, 
    0x0,

};
