static const unsigned int g_nanoem_model_vertex_weight_vs_wgsl_size = 2313;
static const unsigned char g_nanoem_model_vertex_weight_vs_wgsl_data[] =
{
    0x73, 0x74, 0x72, 0x75, 0x63, 0x74, 0x20, 0x74, 0x79, 0x70, 
    0x65, 0x43, 0x6f, 0x6e, 0x73, 0x74, 0x61, 0x6e, 0x74, 0x42, 
    0x75, 0x66, 0x66, 0x65, 0x72, 0x6d, 0x6f, 0x64, 0x65, 0x6c, 
    0x5f, 0x70, 0x61, 0x72, 0x61, 0x6d, 0x65, 0x74, 0x65, 0x72, 
    0x73, 0x5f, 0x74, 0x20, 0x7b, 0x0a, 0x20, 0x20, 0x20, 0x20, 
    0x75, 0x5f, 0x6d, 0x6f, 0x64, 0x65, 0x6c, 0x4d, 0x61, 0x74, 
    0x72, 0x69, 0x78, 0x3a, 0x20, 0x6d, 0x61, 0x74, 0x34, 0x78, 
    0x34, 0x3c, 0x66, 0x33, 0x32, 0x3e, 0x2c, 0x0a, 0x20, 0x20, 
    0x20, 0x20, 0x75, 0x5f, 0x6d, 0x6f, 0x64, 0x65, 0x6c, 0x56, 
    0x69, 0x65, 0x77, 0x4d, 0x61, 0x74, 0x72, 0x69, 0x78, 0x3a, 
    0x20, 0x6d, 0x61, 0x74, 0x34, 0x78, 0x34, 0x3c, 0x66, 0x33, 
    0x32, 0x3e, 0x2c, 0x0a, 0x20, 0x20, 0x20, 0x20, 0x75, 0x5f, 
    0x6d, 0x6f, 0x64, 0x65, 0x6c, 0x56, 0x69, 0x65, 0x77, 0x50, 
    0x72, 0x6f, 0x6a, 0x65, 0x63, 0x74, 0x69, 0x6f, 0x6e, 0x4d, 
    0x61, 0x74, 0x72, 0x69, 0x78, 0x3a, 0x20, 0x6d, 0x61, 0x74, 
    0x34, 0x78, 0x34, 0x3c, 0x66, 0x33, 0x32, 0x3e, 0x2c, 0x0a, 
    0x20, 0x20, 0x20, 0x20, 0x75, 0x5f, 0x6c, 0x69, 0x67, 0x68, 
    0x74, 0x56, 0x69, 0x65, 0x77, 0x50, 0x72, 0x6f, 0x6a, 0x65, 
    0x63, 0x74, 0x69, 0x6f, 0x6e, 0x4d, 0x61, 0x74, 0x72, 0x69, 
    0x78, 0x3a, 0x20, 0x6d, 0x61, 0x74, 0x34, 0x78, 0x34, 0x3c, 
    0x66, 0x33, 0x32, 0x3e, 0x2c, 0x0a, 0x20, 0x20, 0x20, 0x20, 
    0x75, 0x5f, 0x6c, 0x69, 0x67, 0x68, 0x74, 0x43, 0x6f, 0x6c, 
    0x6f, 0x72, 0x3a, 0x20, 0x76, 0x65, 0x63, 0x34, 0x3c, 0x66, 
    0x33, 0x32, 0x3e, 0x2c, 0x0a, 0x20, 0x20, 0x20, 0x20, 0x75, 
    0x5f, 0x6c, 0x69, 0x67, 0x68, 0x74, 0x44, 0x69, 0x72, 0x65, 
    0x63, 0x74, 0x69, 0x6f, 0x6e, 0x3a, 0x20, 0x76, 0x65, 0x63, 
    0x34, 0x3c, 0x66, 0x33, 0x32, 0x3e, 0x2c, 0x0a, 0x20, 0x20, 
    0x20, 0x20, 0x75, 0x5f, 0x63, 0x61, 0x6d, 0x65, 0x72, 0x61, 
    0x50, 0x6f, 0x73, 0x69, 0x74, 0x69, 0x6f, 0x6e, 0x3a, 0x20, 
    0x76, 0x65, 0x63, 0x34, 0x3c, 0x66, 0x33, 0x32, 0x3e, 0x2c, 
    0x0a, 0x20, 0x20, 0x20, 0x20, 0x75, 0x5f, 0x6d, 0x61, 0x74, 
    0x65, 0x72, 0x69, 0x61, 0x6c, 0x41, 0x6d, 0x62, 0x69, 0x65, 
    0x6e, 0x74, 0x3a, 0x20, 0x76, 0x65, 0x63, 0x34, 0x3c, 0x66, 
    0x33, 0x32, 0x3e, 0x2c, 0x0a, 0x20, 0x20, 0x20, 0x20, 0x75, 
    0x5f, 0x6d, 0x61, 0x74, 0x65, 0x72, 0x69, 0x61, 0x6c, 0x44, 
    0x69, 0x66, 0x66, 0x75, 0x73, 0x65, 0x3a, 0x20, 0x76, 0x65, 
    0x63, 0x34, 0x3c, 0x66, 0x33, 0x32, 0x3e, 0x2c, 0x0a, 0x20, 
    0x20, 0x20, 0x20, 0x75, 0x5f, 0x6d, 0x61, 0x74, 0x65, 0x72, 
    0x69, 0x61, 0x6c, 0x53, 0x70, 0x65, 0x63, 0x75, 0x6c, 0x61, 
    0x72, 0x3a, 0x20, 0x76, 0x65, 0x63, 0x34, 0x3c, 0x66, 0x33, 
    0x32, 0x3e, 0x2c, 0x0a, 0x20, 0x20, 0x20, 0x20, 0x75, 0x5f, 
    0x65, 0x6e, 0x61, 0x62, 0x6c, 0x65, 0x56, 0x65, 0x72, 0x74, 
    0x65, 0x78, 0x43, 0x6f, 0x6c, 0x6f, 0x72, 0x3a, 0x20, 0x76, 
    0x65, 0x63, 0x34, 0x3c, 0x66, 0x33, 0x32, 0x3e, 0x2c, 0x0a, 
    0x20, 0x20, 0x20, 0x20, 0x75, 0x5f, 0x64, 0x69, 0x66, 0x66, 
    0x75, 0x73, 0x65, 0x54, 0x65, 0x78, 0x74, 0x75, 0x72, 0x65, 
    0x42, 0x6c, 0x65, 0x6e, 0x64, 0x46, 0x61, 0x63, 0x74, 0x6f, 
    0x72, 0x3a, 0x20, 0x76, 0x65, 0x63, 0x34, 0x3c, 0x66, 0x33, 
    0x32, 0x3e, 0x2c, 0x0a, 0x20, 0x20, 0x20, 0x20, 0x75, 0x5f, 
    0x73, 0x70, 0x68, 0x65, 0x72, 0x65, 0x54, 0x65, 0x78, 0x74, 
    0x75, 0x72, 0x65, 0x42, 0x6c, 0x65, 0x6e, 0x64, 0x46, 0x61, 
    0x63, 0x74, 0x6f, 0x72, 0x3a, 0x20, 0x76, 0x65, 0x63, 0x34, 
    0x3c, 0x66, 0x33, 0x32, 0x3e, 0x2c, 0x0a, 0x20, 0x20, 0x20, 
    0x20, 0x75, 0x5f, 0x74, 0x6f, 0x6f, 0x6e, 0x54, 0x65, 0x78, 
    0x74, 0x75, 0x72, 0x65, 0x42, 0x6c, 0x65, 0x6e, 0x64, 0x46, 
    0x61, 0x63, 0x74, 0x6f, 0x72, 0x3a, 0x20, 0x76, 0x65, 0x63, 
    0x34, 0x3c, 0x66, 0x33, 0x32, 0x3e, 0x2c, 0x0a, 0x20, 0x20, 
    0x20, 0x20, 0x75, 0x5f, 0x75, 0x73, 0x65, 0x54, 0x65, 0x78, 
    0x74, 0x75, 0x72, 0x65, 0x53, 0x61, 0x6d, 0x70, 0x6c, 0x65, 
    0x72, 0x3a, 0x20, 0x76, 0x65, 0x63, 0x34, 0x3c, 0x66, 0x33, 
    0x32, 0x3e, 0x2c, 0x0a, 0x20, 0x20, 0x20, 0x20, 0x75, 0x5f, 
    0x73, 0x70, 0x68, 0x65, 0x72, 0x65, 0x54, 0x65, 0x78, 0x74, 
    0x75, 0x72, 0x65, 0x54, 0x79, 0x70, 0x65, 0x3a, 0x20, 0x76, 
    0x65, 0x63, 0x34, 0x3c, 0x66, 0x33, 0x32, 0x3e, 0x2c, 0x0a, 
    0x20, 0x20, 0x20, 0x20, 0x75, 0x5f, 0x73, 0x68, 0x61, 0x64, 
    0x6f, 0x77, 0x4d, 0x61, 0x70, 0x53, 0x69, 0x7a, 0x65, 0x3a, 
    0x20, 0x76, 0x65, 0x63, 0x34, 0x3c, 0x66, 0x33, 0x32, 0x3e, 
    0x2c, 0x0a, 0x7d, 0x0a, 0x0a, 0x73, 0x74, 0x72, 0x75, 0x63, 
    0x74, 0x20, 0x56, 0x65, 0x72, 0x74, 0x65, 0x78, 0x4f, 0x75, 
    0x74, 0x70, 0x75, 0x74, 0x20, 0x7b, 0x0a, 0x20, 0x20, 0x20, 
    0x20, 0x40, 0x62, 0x75, 0x69, 0x6c, 0x74, 0x69, 0x6e, 0x28, 
    0x70, 0x6f, 0x73, 0x69, 0x74, 0x69, 0x6f, 0x6e, 0x29, 0x20, 
    0x6d, 0x65, 0x6d, 0x62, 0x65, 0x72, 0x3a, 0x20, 0x76, 0x65, 
    0x63, 0x34, 0x3c, 0x66, 0x33, 0x32, 0x3e, 0x2c, 0x0a, 0x20, 
    0x20, 0x20, 0x20, 0x40, 0x6c, 0x6f, 0x63, 0x61, 0x74, 0x69, 
    0x6f, 0x6e, 0x28, 0x30, 0x29, 0x20, 0x6d, 0x65, 0x6d, 0x62, 
    0x65, 0x72, 0x5f, 0x31, 0x3a, 0x20, 0x76, 0x65, 0x63, 0x34, 
    0x3c, 0x66, 0x33, 0x32, 0x3e, 0x2c, 0x0a, 0x20, 0x20, 0x20, 
    0x20, 0x40, 0x6c, 0x6f, 0x63, 0x61, 0x74, 0x69, 0x6f, 0x6e, 
    0x28, 0x31, 0x29, 0x20, 0x6d, 0x65, 0x6d, 0x62, 0x65, 0x72, 
    0x5f, 0x32, 0x3a, 0x20, 0x76, 0x65, 0x63, 0x33, 0x3c, 0x66, 
    0x33, 0x32, 0x3e, 0x2c, 0x0a, 0x20, 0x20, 0x20, 0x20, 0x40, 
    0x6c, 0x6f, 0x63, 0x61, 0x74, 0x69, 0x6f, 0x6e, 0x28, 0x32, 
    0x29, 0x20, 0x6d, 0x65, 0x6d, 0x62, 0x65, 0x72, 0x5f, 0x33, 
    0x3a, 0x20, 0x76, 0x65, 0x63, 0x32, 0x3c, 0x66, 0x33, 0x32, 
    0x3e, 0x2c, 0x0a, 0x20, 0x20, 0x20, 0x20, 0x40, 0x6c, 0x6f, 
    0x63, 0x61, 0x74, 0x69, 0x6f, 0x6e, 0x28, 0x33, 0x29, 0x20, 
    0x6d, 0x65, 0x6d, 0x62, 0x65, 0x72, 0x5f, 0x34, 0x3a, 0x20, 
    0x76, 0x65, 0x63, 0x32, 0x3c, 0x66, 0x33, 0x32, 0x3e, 0x2c, 
    0x0a, 0x20, 0x20, 0x20, 0x20, 0x40, 0x6c, 0x6f, 0x63, 0x61, 
    0x74, 0x69, 0x6f, 0x6e, 0x28, 0x34, 0x29, 0x20, 0x6d, 0x65, 
    0x6d, 0x62, 0x65, 0x72, 0x5f, 0x35, 0x3a, 0x20, 0x76, 0x65, 
    0x63, 0x33, 0x3c, 0x66, 0x33, 0x32, 0x3e, 0x2c, 0x0a, 0x20, 
    0x20, 0x20, 0x20, 0x40, 0x6c, 0x6f, 0x63, 0x61, 0x74, 0x69, 
    0x6f, 0x6e, 0x28, 0x35, 0x29, 0x20, 0x6d, 0x65, 0x6d, 0x62, 
    0x65, 0x72, 0x5f, 0x36, 0x3a, 0x20, 0x76, 0x65, 0x63, 0x34, 
    0x3c, 0x66, 0x33, 0x32, 0x3e, 0x2c, 0x0a, 0x7d, 0x0a, 0x0a, 
    0x40, 0x67, 0x72, 0x6f, 0x75, 0x70, 0x28, 0x30, 0x29, 0x20, 
    0x40, 0x62, 0x69, 0x6e, 0x64, 0x69, 0x6e, 0x67, 0x28, 0x30, 
    0x29, 0x20, 0x0a, 0x76, 0x61, 0x72, 0x3c, 0x75, 0x6e, 0x69, 
    0x66, 0x6f, 0x72, 0x6d, 0x3e, 0x20, 0x76, 0x73, 0x3a, 0x20, 
    0x74, 0x79, 0x70, 0x65, 0x43, 0x6f, 0x6e, 0x73, 0x74, 0x61, 
    0x6e, 0x74, 0x42, 0x75, 0x66, 0x66, 0x65, 0x72, 0x6d, 0x6f, 
    0x64, 0x65, 0x6c, 0x5f, 0x70, 0x61, 0x72, 0x61, 0x6d, 0x65, 
    0x74, 0x65, 0x72, 0x73, 0x5f, 0x74, 0x3b, 0x0a, 0x76, 0x61, 
    0x72, 0x3c, 0x70, 0x72, 0x69, 0x76, 0x61, 0x74, 0x65, 0x3e, 
    0x20, 0x69, 0x6e, 0x76, 0x61, 0x72, 0x53, 0x56, 0x5f, 0x50, 
    0x4f, 0x53, 0x49, 0x54, 0x49, 0x4f, 0x4e, 0x5f, 0x31, 0x3a, 
    0x20, 0x76, 0x65, 0x63, 0x33, 0x3c, 0x66, 0x33, 0x32, 0x3e, 
    0x3b, 0x0a, 0x76, 0x61, 0x72, 0x3c, 0x70, 0x72, 0x69, 0x76, 
    0x61, 0x74, 0x65, 0x3e, 0x20, 0x69, 0x6e, 0x76, 0x61, 0x72, 
    0x43, 0x4f, 0x4c, 0x4f, 0x52, 0x30, 0x5f, 0x31, 0x3a, 0x20, 
    0x76, 0x65, 0x63, 0x34, 0x3c, 0x66, 0x33, 0x32, 0x3e, 0x3b, 
    0x0a, 0x76, 0x61, 0x72, 0x3c, 0x70, 0x72, 0x69, 0x76, 0x61, 
    0x74, 0x65, 0x3e, 0x20, 0x67, 0x6c, 0x6f, 0x62, 0x61, 0x6c, 
    0x3a, 0x20, 0x76, 0x65, 0x63, 0x34, 0x3c, 0x66, 0x33, 0x32, 
    0x3e, 0x20, 0x3d, 0x20, 0x76, 0x65, 0x63, 0x34, 0x3c, 0x66, 
    0x33, 0x32, 0x3e, 0x28, 0x30, 0x2e, 0x30, 0x2c, 0x20, 0x30, 
    0x2e, 0x30, 0x2c, 0x20, 0x30, 0x2e, 0x30, 0x2c, 0x20, 0x31, 
    0x2e, 0x30, 0x29, 0x3b, 0x0a, 0x76, 0x61, 0x72, 0x3c, 0x70, 
    0x72, 0x69, 0x76, 0x61, 0x74, 0x65, 0x3e, 0x20, 0x6f, 0x75, 
    0x74, 0x76, 0x61, 0x72, 0x43, 0x4f, 0x4c, 0x4f, 0x52, 0x30, 
    0x5f, 0x3a, 0x20, 0x76, 0x65, 0x63, 0x34, 0x3c, 0x66, 0x33, 
    0x32, 0x3e, 0x3b, 0x0a, 0x76, 0x61, 0x72, 0x3c, 0x70, 0x72, 
    0x69, 0x76, 0x61, 0x74, 0x65, 0x3e, 0x20, 0x6f, 0x75, 0x74, 
    0x76, 0x61, 0x72, 0x54, 0x45, 0x58, 0x43, 0x4f, 0x4f, 0x52, 
    0x44, 0x30, 0x5f, 0x3a, 0x20, 0x76, 0x65, 0x63, 0x33, 0x3c, 
    0x66, 0x33, 0x32, 0x3e, 0x3b, 0x0a, 0x76, 0x61, 0x72, 0x3c, 
    0x70, 0x72, 0x69, 0x76, 0x61, 0x74, 0x65, 0x3e, 0x20, 0x6f, 
    0x75, 0x74, 0x76, 0x61, 0x72, 0x54, 0x45, 0x58, 0x43, 0x4f, 
    0x4f, 0x52, 0x44, 0x31, 0x5f, 0x3a, 0x20, 0x76, 0x65, 0x63, 
    0x32, 0x3c, 0x66, 0x33, 0x32, 0x3e, 0x3b, 0x0a, 0x76, 0x61, 
    0x72, 0x3c, 0x70, 0x72, 0x69, 0x76, 0x61, 0x74, 0x65, 0x3e, 
    0x20, 0x6f, 0x75, 0x74, 0x76, 0x61, 0x72, 0x54, 0x45, 0x58, 
    0x43, 0x4f, 0x4f, 0x52, 0x44, 0x32, 0x5f, 0x3a, 0x20, 0x76, 
    0x65, 0x63, 0x32, 0x3c, 0x66, 0x33, 0x32, 0x3e, 0x3b, 0x0a, 
    0x76, 0x61, 0x72, 0x3c, 0x70, 0x72, 0x69, 0x76, 0x61, 0x74, 
    0x65, 0x3e, 0x20, 0x6f, 0x75, 0x74, 0x76, 0x61, 0x72, 0x54, 
    0x45, 0x58, 0x43, 0x4f, 0x4f, 0x52, 0x44, 0x33, 0x5f, 0x3a, 
    0x20, 0x76, 0x65, 0x63, 0x33, 0x3c, 0x66, 0x33, 0x32, 0x3e, 
    0x3b, 0x0a, 0x76, 0x61, 0x72, 0x3c, 0x70, 0x72, 0x69, 0x76, 
    0x61, 0x74, 0x65, 0x3e, 0x20, 0x6f, 0x75, 0x74, 0x76, 0x61, 
    0x72, 0x54, 0x45, 0x58, 0x43, 0x4f, 0x4f, 0x52, 0x44, 0x34, 
    0x5f, 0x3a, 0x20, 0x76, 0x65, 0x63, 0x34, 0x3c, 0x66, 0x33, 
    0x32, 0x3e, 0x3b, 0x0a, 0x0a, 0x66, 0x6e, 0x20, 0x6e, 0x61, 
    0x6e, 0x6f, 0x65, 0x6d, 0x56, 0x53, 0x4d, 0x61, 0x69, 0x6e, 
    0x5f, 0x31, 0x28, 0x29, 0x20, 0x7b, 0x0a, 0x20, 0x20, 0x20, 
    0x20, 0x6c, 0x65, 0x74, 0x20, 0x5f, 0x65, 0x31, 0x32, 0x20, 
    0x3d, 0x20, 0x69, 0x6e, 0x76, 0x61, 0x72, 0x53, 0x56, 0x5f, 
    0x50, 0x4f, 0x53, 0x49, 0x54, 0x49, 0x4f, 0x4e, 0x5f, 0x31, 
    0x3b, 0x0a, 0x20, 0x20, 0x20, 0x20, 0x6c, 0x65, 0x74, 0x20, 
    0x5f, 0x65, 0x31, 0x33, 0x20, 0x3d, 0x20, 0x69, 0x6e, 0x76, 
    0x61, 0x72, 0x43, 0x4f, 0x4c, 0x4f, 0x52, 0x30, 0x5f, 0x31, 
    0x3b, 0x0a, 0x20, 0x20, 0x20, 0x20, 0x6c, 0x65, 0x74, 0x20, 
    0x5f, 0x65, 0x31, 0x39, 0x20, 0x3d, 0x20, 0x76, 0x73, 0x2e, 
    0x75, 0x5f, 0x6d, 0x6f, 0x64, 0x65, 0x6c, 0x56, 0x69, 0x65, 
    0x77, 0x50, 0x72, 0x6f, 0x6a, 0x65, 0x63, 0x74, 0x69, 0x6f, 
    0x6e, 0x4d, 0x61, 0x74, 0x72, 0x69, 0x78, 0x3b, 0x0a, 0x20, 
    0x20, 0x20, 0x20, 0x6c, 0x65, 0x74, 0x20, 0x5f, 0x65, 0x32, 
    0x31, 0x20, 0x3d, 0x20, 0x28, 0x76, 0x65, 0x63, 0x34, 0x3c, 
    0x66, 0x33, 0x32, 0x3e, 0x28, 0x5f, 0x65, 0x31, 0x32, 0x2e, 
    0x78, 0x2c, 0x20, 0x5f, 0x65, 0x31, 0x32, 0x2e, 0x79, 0x2c, 
    0x20, 0x5f, 0x65, 0x31, 0x32, 0x2e, 0x7a, 0x2c, 0x20, 0x31, 
    0x2e, 0x30, 0x29, 0x20, 0x2a, 0x20, 0x74, 0x72, 0x61, 0x6e, 
    0x73, 0x70, 0x6f, 0x73, 0x65, 0x28, 0x5f, 0x65, 0x31, 0x39, 
    0x29, 0x29, 0x3b, 0x0a, 0x20, 0x20, 0x20, 0x20, 0x67, 0x6c, 
    0x6f, 0x62, 0x61, 0x6c, 0x20, 0x3d, 0x20, 0x76, 0x65, 0x63, 
    0x34, 0x3c, 0x66, 0x33, 0x32, 0x3e, 0x28, 0x5f, 0x65, 0x32, 
    0x31, 0x2e, 0x78, 0x2c, 0x20, 0x2d, 0x28, 0x5f, 0x65, 0x32, 
    0x31, 0x2e, 0x79, 0x29, 0x2c, 0x20, 0x5f, 0x65, 0x32, 0x31, 
    0x2e, 0x7a, 0x2c, 0x20, 0x5f, 0x65, 0x32, 0x31, 0x2e, 0x77, 
    0x29, 0x3b, 0x0a, 0x20, 0x20, 0x20, 0x20, 0x6f, 0x75, 0x74, 
    0x76, 0x61, 0x72, 0x43, 0x4f, 0x4c, 0x4f, 0x52, 0x30, 0x5f, 
    0x20, 0x3d, 0x20, 0x5f, 0x65, 0x31, 0x33, 0x3b, 0x0a, 0x20, 
    0x20, 0x20, 0x20, 0x72, 0x65, 0x74, 0x75, 0x72, 0x6e, 0x3b, 
    0x0a, 0x7d, 0x0a, 0x0a, 0x40, 0x76, 0x65, 0x72, 0x74, 0x65, 
    0x78, 0x20, 0x0a, 0x66, 0x6e, 0x20, 0x6e, 0x61, 0x6e, 0x6f, 
    0x65, 0x6d, 0x56, 0x53, 0x4d, 0x61, 0x69, 0x6e, 0x28, 0x40, 
    0x6c, 0x6f, 0x63, 0x61, 0x74, 0x69, 0x6f, 0x6e, 0x28, 0x30, 
    0x29, 0x20, 0x69, 0x6e, 0x76, 0x61, 0x72, 0x53, 0x56, 0x5f, 
    0x50, 0x4f, 0x53, 0x49, 0x54, 0x49, 0x4f, 0x4e, 0x3a, 0x20, 
    0x76, 0x65, 0x63, 0x33, 0x3c, 0x66, 0x33, 0x32, 0x3e, 0x2c, 
    0x20, 0x40, 0x6c, 0x6f, 0x63, 0x61, 0x74, 0x69, 0x6f, 0x6e, 
    0x28, 0x37, 0x29, 0x20, 0x69, 0x6e, 0x76, 0x61, 0x72, 0x43, 
    0x4f, 0x4c, 0x4f, 0x52, 0x30, 0x5f, 0x3a, 0x20, 0x76, 0x65, 
    0x63, 0x34, 0x3c, 0x66, 0x33, 0x32, 0x3e, 0x29, 0x20, 0x2d, 
    0x3e, 0x20, 0x56, 0x65, 0x72, 0x74, 0x65, 0x78, 0x4f, 0x75, 
    0x74, 0x70, 0x75, 0x74, 0x20, 0x7b, 0x0a, 0x20, 0x20, 0x20, 
    0x20, 0x69, 0x6e, 0x76, 0x61, 0x72, 0x53, 0x56, 0x5f, 0x50, 
    0x4f, 0x53, 0x49, 0x54, 0x49, 0x4f, 0x4e, 0x5f, 0x31, 0x20, 
    0x3d, 0x20, 0x69, 0x6e, 0x76, 0x61, 0x72, 0x53, 0x56, 0x5f, 
    0x50, 0x4f, 0x53, 0x49, 0x54, 0x49, 0x4f, 0x4e, 0x3b, 0x0a, 
    0x20, 0x20, 0x20, 0x20, 0x69, 0x6e, 0x76, 0x61, 0x72, 0x43, 
    0x4f, 0x4c, 0x4f, 0x52, 0x30, 0x5f, 0x31, 0x20, 0x3d, 0x20, 
    0x69, 0x6e, 0x76, 0x61, 0x72, 0x43, 0x4f, 0x4c, 0x4f, 0x52, 
    0x30, 0x5f, 0x3b, 0x0a, 0x20, 0x20, 0x20, 0x20, 0x6e, 0x61, 
    0x6e, 0x6f, 0x65, 0x6d, 0x56, 0x53, 0x4d, 0x61, 0x69, 0x6e, 
    0x5f, 0x31, 0x28, 0x29, 0x3b, 0x0a, 0x20, 0x20, 0x20, 0x20, 
    0x6c, 0x65, 0x74, 0x20, 0x5f, 0x65, 0x31, 0x32, 0x20, 0x3d, 
    0x20, 0x67, 0x6c, 0x6f, 0x62, 0x61, 0x6c, 0x2e, 0x79, 0x3b, 
    0x0a, 0x20, 0x20, 0x20, 0x20, 0x67, 0x6c, 0x6f, 0x62, 0x61, 
    0x6c, 0x2e, 0x79, 0x20, 0x3d, 0x20, 0x2d, 0x28, 0x5f, 0x65, 
    0x31, 0x32, 0x29, 0x3b, 0x0a, 0x20, 0x20, 0x20, 0x20, 0x6c, 
    0x65, 0x74, 0x20, 0x5f, 0x65, 0x31, 0x34, 0x20, 0x3d, 0x20, 
    0x67, 0x6c, 0x6f, 0x62, 0x61, 0x6c, 0x3b, 0x0a, 0x20, 0x20, 
    0x20, 0x20, 0x6c, 0x65, 0x74, 0x20, 0x5f, 0x65, 0x31, 0x35, 
    0x20, 0x3d, 0x20, 0x6f, 0x75, 0x74, 0x76, 0x61, 0x72, 0x43, 
    0x4f, 0x4c, 0x4f, 0x52, 0x30, 0x5f, 0x3b, 0x0a, 0x20, 0x20, 
    0x20, 0x20, 0x6c, 0x65, 0x74, 0x20, 0x5f, 0x65, 0x31, 0x36, 
    0x20, 0x3d, 0x20, 0x6f, 0x75, 0x74, 0x76, 0x61, 0x72, 0x54, 
    0x45, 0x58, 0x43, 0x4f, 0x4f, 0x52, 0x44, 0x30, 0x5f, 0x3b, 
    0x0a, 0x20, 0x20, 0x20, 0x20, 0x6c, 0x65, 0x74, 0x20, 0x5f, 
    0x65, 0x31, 0x37, 0x20, 0x3d, 0x20, 0x6f, 0x75, 0x74, 0x76, 
    0x61, 0x72, 0x54, 0x45, 0x58, 0x43, 0x4f, 0x4f, 0x52, 0x44, 
    0x31, 0x5f, 0x3b, 0x0a, 0x20, 0x20, 0x20, 0x20, 0x6c, 0x65, 
    0x74, 0x20, 0x5f, 0x65, 0x31, 0x38, 0x20, 0x3d, 0x20, 0x6f, 
    0x75, 0x74, 0x76, 0x61, 0x72, 0x54, 0x45, 0x58, 0x43, 0x4f, 
    0x4f, 0x52, 0x44, 0x32, 0x5f, 0x3b, 0x0a, 0x20, 0x20, 0x20, 
    0x20, 0x6c, 0x65, 0x74, 0x20, 0x5f, 0x65, 0x31, 0x39, 0x20, 
    0x3d, 0x20, 0x6f, 0x75, 0x74, 0x76, 0x61, 0x72, 0x54, 0x45, 
    0x58, 0x43, 0x4f, 0x4f, 0x52, 0x44, 0x33, 0x5f, 0x3b, 0x0a, 
    0x20, 0x20, 0x20, 0x20, 0x6c, 0x65, 0x74, 0x20, 0x5f, 0x65, 
    0x32, 0x30, 0x20, 0x3d, 0x20, 0x6f, 0x75, 0x74, 0x76, 0x61, 
    0x72, 0x54, 0x45, 0x58, 0x43, 0x4f, 0x4f, 0x52, 0x44, 0x34, 
    0x5f, 0x3b, 0x0a, 0x20, 0x20, 0x20, 0x20, 0x72, 0x65, 0x74, 
    0x75, 0x72, 0x6e, 0x20, 0x56, 0x65, 0x72, 0x74, 0x65, 0x78, 
    0x4f, 0x75, 0x74, 0x70, 0x75, 0x74, 0x28, 0x5f, 0x65, 0x31, 
    0x34, 0x2c, 0x20, 0x5f, 0x65, 0x31, 0x35, 0x2c, 0x20, 0x5f, 
    0x65, 0x31, 0x36, 0x2c, 0x20, 0x5f, 0x65, 0x31, 0x37, 0x2c, 
    0x20, 0x5f, 0x65, 0x31, 0x38, 0x2c, 0x20, 0x5f, 0x65, 0x31, 
    0x39, 0x2c, 0x20, 0x5f, 0x65, 0x32, 0x30, 0x29, 0x3b, 0x0a, 
    0x7d, 0x0a, 
    0x0,

};
